0A
07
0A
0A
07
07
01
01
01
01
01
01
01
01
01
01
01
01
01
01
01
01
01
01
01
01
01
01
01
03
03
01
01
01
01
01
01
01
01
01
01
01
01
01
01
01
01
01
01
01
01
0C
01
0C
07
0C
01
01
01
01
01
0101
001B
001C
0001
0019
00000024
0003
001A
0000
0014
0001
0001001D
5B
0003
5A
001E
5A
001E
5A
001F
0020
0001
0001001D
5B
0001
73
0021
