0A
07
0A
0A
07
07
01
01
01
01
01
01
01
01
01
01
01
01
01
01
01
01
01
01
01
01
01
01
01
03
03
01
01
01
01
01
01
01
01
01
01
01
01
01
01
01
01
01
01
01
01
0C
01
0C
07
0C
01
01
01
01
01
0104
0027
0028
0002
0019
00000006
0001
001A
0000
0013
0000001F
03
0002
0014
0000
0015
0000
0002
0014
0000
0015
0000
0002
0014
0000
0015
0000
