09
0A
07
07
0A
09
0A
0B
0B
0B
0B
0B
07
0A
09
07
0A
09
0A
0B
07
0A
0B
0A
0A
0A
0A
0A
0A
0B
0A
0B
0B
0A
0A
07
07
01
01
01
01
01
01
01
01
01
01
01
01
01
01
01
01
01
01
01
01
01
01
01
01
01
01
01
07
07
07
01
01
01
01
01
01
01
01
01
01
01
01
01
01
01
01
07
07
07
01
01
01
01
01
01
01
01
01
0C
0C
01
01
0C
0C
07
0C
07
0C
07
0C
07
0C
0C
0C
01
0C
0C
01
0C
0C
07
01
0C
0C
0C
0C
0C
0C
0C
07
0C
0C
07
0C
0C
0C
0C
0C
01
01
01
01
01
07
01
01
01
01
01
01
01
01
01
01
01
01
01
01
01
01
01
01
01
01
01
01
01
01
01
01
01
01
01
01
01
01
01
01
01
01
01
01
01
01
01
01
01
01
0001
0032
0033
0001
0034
000000E3
0004
0004
0000005C
2A
2B
B50001
2A
2B
01
B70002
2A
BB0003
59
1204
B70005
B50006
2B
B80007
B900080100
B900090100
4D
2C
B9000A0100
990018
2C
B9000B0100
4E
2A
B40006
2D
B9000C0200
57
A7FFE5
2A
BB000D
59
B7000E
B5000F
2A
BB0010
59
B70011
B50012
B1
0000
0004
0035
00000022
0008
0000
00E0
000B
00E1
0018
00E2
0037
00E3
0042
00E4
0045
00E5
0050
00E6
005B
00E7
0036
00000016
0002
0037
000B
0037
0038
0003
0000
005C
0039
003C
0000
003D
00000016
0002
0037
000B
0037
003E
0003
0000
005C
0039
003F
0000
0040
00000015
0002
FF
0027
0003
07
0041
07
0042
07
0043
0000
FA
001D
