0A
07
09
0A
0A
0A
09
09
09
09
09
0A
0A
0A
0A
0A
0A
07
08
0A
07
0A
09
07
01
01
01
01
01
01
01
01
01
01
01
01
01
01
01
01
01
01
01
01
01
01
01
01
01
01
01
01
01
01
01
01
01
01
01
01
01
01
01
01
01
01
01
01
01
01
01
0C
01
0C
0C
0C
0C
0C
0C
0C
0C
0C
0C
0C
0C
0C
0C
01
01
0C
01
07
0C
0C
01
01
01
01
01
01
01
01
01
01
01
01
01
0001
0035
0034
0001
0025
0000003F
0002
0002
00000012
2A
B40008
1B
9F000C
2A
1B
B50008
2A
B6000E
B1
0000
0002
0026
00000012
0004
0000
0055
0008
0056
000D
0057
0011
0059
0032
00000003
0001
11
