0A
07
09
0A
0A
0A
09
09
09
09
09
0A
0A
0A
0A
0A
0A
07
08
0A
07
0A
09
07
01
01
01
01
01
01
01
01
01
01
01
01
01
01
01
01
01
01
01
01
01
01
01
01
01
01
01
01
01
01
01
01
01
01
01
01
01
01
01
01
01
01
01
01
01
01
01
0C
01
0C
0C
0C
0C
0C
0C
0C
0C
0C
0C
0C
0C
0C
0C
01
01
0C
01
07
0C
0C
01
01
01
01
01
01
01
01
01
01
01
01
01
0001
0041
0042
0002
0025
00000022
0003
0001
0000000A
BB0012
59
1213
B70014
BF
0000
0001
0026
00000006
0001
0000
0085
003B
00000004
0001
0012
