0A
07
09
0A
0A
0A
09
09
09
09
09
0A
0A
0A
0A
0A
0A
07
08
0A
07
0A
09
07
01
01
01
01
01
01
01
01
01
01
01
01
01
01
01
01
01
01
01
01
01
01
01
01
01
01
01
01
01
01
01
01
01
01
01
01
01
01
01
01
01
01
01
01
01
01
01
0C
01
0C
0C
0C
0C
0C
0C
0C
0C
0C
0C
0C
0C
0C
0C
01
01
0C
01
07
0C
0C
01
01
01
01
01
01
01
01
01
01
01
01
01
0001
0023
0027
0001
0025
0000002A
0002
0002
0000000A
2A
B70005
2A
2B
B60006
B1
0000
0001
0026
0000000E
0003
0000
0034
0004
0035
0009
0036
