07
01
09
0C
01
01
09
0C
01
09
0C
01
09
0C
01
09
0C
01
09
0C
01
09
0C
01
09
0C
01
09
0C
01
09
0C
01
01
0A
07
0C
01
01
0A
07
0C
01
01
01
0A
0C
01
01
0A
07
0C
01
01
01
09
0C
01
01
09
0C
01
12
0C
01
01
08
08
01
0A
0C
01
08
08
01
08
08
01
08
08
01
08
08
01
08
08
01
08
08
01
08
08
01
08
08
01
0A
0C
01
01
07
01
01
01
01
01
01
01
01
01
01
01
01
01
01
01
01
01
01
07
01
01
08
01
0F
0A
07
0C
01
01
01
01
07
01
07
01
01
01
07
01
07
01
01
0002
0030
0048
0003
0068
00000053
0003
0004
00000013
2A
2B
1C
B7002E
2A
B80032
B50038
2A
2D
B5003C
B1
0000
0002
0069
00000012
0004
0000
1605
0006
1601
000D
1606
0012
1607
006B
00000016
0002
0000
0013
006E
0006
0000
0000
0013
003E
003B
0003
006D
0000000D
03
0000
1000
0000
1000
0000
0000
006F
00000002
0070
