01
07
01
07
01
01
07
01
01
01
07
01
01
01
0C
0A
01
01
01
01
01
01
0C
09
01
01
0C
09
01
01
01
01
01
0001
0013
0014
0001
001D
0000003B
0005
0001
00000011
BB0004
59
2A
B40018
2A
B4001C
01
B70010
B0
0000
0002
001E
00000006
0001
0000
0046
001F
0000000C
0001
0000
0011
0011
0012
0000
