01
07
01
07
01
01
07
01
07
01
01
07
01
07
01
01
07
01
01
07
01
07
01
01
01
01
01
0C
0A
01
01
01
01
01
01
01
0C
09
01
08
01
0C
0A
01
07
01
01
0C
0A
01
01
01
08
01
01
01
07
01
08
01
01
0C
0A
01
07
01
01
0C
0A
01
08
01
07
01
0C
0A
01
01
0C
0A
01
0C
0A
01
10
01
01
0C
0A
0F
01
10
01
07
01
01
0C
0A
0F
01
01
0C
12
01
01
01
01
01
01
07
01
07
01
01
0C
0A
01
07
01
01
0C
0B
01
07
0C
0A
01
07
01
01
0C
0B
01
01
01
01
07
01
01
0C
0A
0C
09
01
01
01
01
01
01
01
01
0008
0087
001B
0001
0090
00000021
0001
0000
00000009
1202
B8008D
B3008F
B1
0000
0001
0091
00000006
0001
0000
0022
