01
07
01
07
01
01
07
01
07
01
01
07
01
07
01
01
07
01
01
07
01
07
01
01
01
01
01
0C
0A
01
01
01
01
01
01
01
0C
09
01
08
01
0C
0A
01
07
01
01
0C
0A
01
01
01
08
01
01
01
07
01
08
01
01
0C
0A
01
07
01
01
0C
0A
01
08
01
07
01
0C
0A
01
01
0C
0A
01
0C
0A
01
10
01
01
0C
0A
0F
01
10
01
07
01
01
0C
0A
0F
01
01
0C
12
01
01
01
01
01
01
07
01
07
01
01
0C
0A
01
07
01
01
0C
0B
01
07
0C
0A
01
07
01
01
0C
0B
01
01
01
01
07
01
01
0C
0A
0C
09
01
01
01
01
01
01
01
01
0001
0020
0021
0002
0090
0000003A
0004
0001
00000010
BB0007
59
B20026
1228
B7002B
B80031
B0
0000
0002
0091
00000006
0001
0000
0026
0092
0000000C
0001
0000
0010
001E
001F
0000
0093
00000002
0022
