0A
09
09
09
0B
07
0A
08
0A
0A
0A
08
08
08
0A
0A
07
0A
07
07
01
01
01
01
01
01
01
01
01
01
01
01
01
01
01
01
01
01
01
01
01
01
01
01
01
01
01
01
01
01
01
01
01
01
01
01
01
0C
0C
0C
0C
07
0C
01
0C
01
0C
0C
0C
01
01
01
0C
0C
01
0C
01
01
01
01
01
01
01
01
01
01
1041
0030
0036
0001
001D
00000045
0002
0002
00000009
2A
2B
C00011
B60012
AC
0000
0003
001E
00000006
0001
0000
0020
001F
0000000C
0001
0000
0009
0020
0021
0000
0026
0000000C
0001
0000
0009
0020
0027
0000
