01
07
01
07
01
01
01
07
01
07
01
01
07
01
07
01
01
01
07
01
01
07
01
01
07
01
01
07
01
07
01
01
01
07
01
01
07
01
07
01
01
07
01
07
01
01
07
01
07
01
01
01
01
01
01
01
01
01
01
01
0C
09
08
01
07
01
01
0C
0A
01
07
01
01
0C
0A
01
01
0C
0B
01
07
01
01
0C
0A
01
0C
0A
01
01
0C
0B
01
08
01
01
0C
0A
0C
09
01
01
0C
0A
01
01
01
01
0C
09
01
0C
0A
01
01
0C
0B
01
01
0C
0A
01
01
0C
09
01
01
0C
0A
01
01
0C
0A
01
01
0C
0A
01
01
0C
0A
01
0C
0A
01
01
01
01
01
01
0C
0B
01
07
01
0C
0B
01
01
0C
0B
01
01
0C
0A
01
0C
0A
01
01
0C
0A
01
01
01
01
01
01
01
01
01
01
01
01
0C
0A
01
0C
0A
0C
0A
01
01
01
01
01
01
07
01
0C
0A
01
01
0C
0A
01
01
01
01
01
01
01
01
01
01
01
01
01
01
01
0001
00C3
00C4
0001
00D5
000000A7
0003
0003
00000043
2B
C10002
9A0005
03
AC
2B
C00002
4D
2C
2A
A5002D
2A
B40064
B9004F0100
2C
B40064
B9004F0100
A0001C
BB00C6
59
2A
B40064
B700C9
2C
B40064
B600CD
990007
04
A70004
03
AC
0000
0003
00D6
0000000C
0004
09
FC
0033
07
0002
03
40
01
00D7
0000001A
0006
0000
0127
0007
0128
0009
012A
000E
012C
0017
012D
0042
012C
00D8
00000020
0003
0000
0043
0069
006A
0000
0000
0043
00CE
00CF
0001
000E
0035
00D0
006A
0002
