09
09
0A
09
09
0B
0A
07
07
01
01
01
05
01
01
01
01
01
01
01
01
01
01
01
01
01
01
01
01
01
01
01
01
07
0C
01
0C
0C
0C
0C
0C
07
0C
07
0C
01
01
01
01
01
01
01
01
01
01
01
01
01
01
01
0000
0013
0014
0001
0015
00000043
0002
0003
0000000F
2A
2B
B50001
2A
2C
B50002
2A
B70003
B1
0000
0002
0016
00000006
0001
0000
00AC
0017
00000016
0002
0000
000F
0018
001A
0000
0000
000F
0011
0012
0001
